unsigned char model[] = {
  0x1c, 0x00, 0x00, 0x00, 0x54, 0x46, 0x4c, 0x33, 0x14, 0x00, 0x20, 0x00,
  0x1c, 0x00, 0x18, 0x00, 0x14, 0x00, 0x10, 0x00, 0x0c, 0x00, 0x00, 0x00,
  0x08, 0x00, 0x04, 0x00, 0x14, 0x00, 0x00, 0x00, 0x1c, 0x00, 0x00, 0x00,
  0x98, 0x00, 0x00, 0x00, 0xf0, 0x00, 0x00, 0x00, 0x80, 0x13, 0x00, 0x00,
  0x90, 0x13, 0x00, 0x00, 0x08, 0x1b, 0x00, 0x00, 0x03, 0x00, 0x00, 0x00,
  0x01, 0x00, 0x00, 0x00, 0x10, 0x00, 0x00, 0x00, 0x00, 0x00, 0x0a, 0x00,
  0x10, 0x00, 0x0c, 0x00, 0x08, 0x00, 0x04, 0x00, 0x0a, 0x00, 0x00, 0x00,
  0x0c, 0x00, 0x00, 0x00, 0x1c, 0x00, 0x00, 0x00, 0x3c, 0x00, 0x00, 0x00,
  0x0f, 0x00, 0x00, 0x00, 0x73, 0x65, 0x72, 0x76, 0x69, 0x6e, 0x67, 0x5f,
  0x64, 0x65, 0x66, 0x61, 0x75, 0x6c, 0x74, 0x00, 0x01, 0x00, 0x00, 0x00,
  0x04, 0x00, 0x00, 0x00, 0x90, 0xff, 0xff, 0xff, 0x0d, 0x00, 0x00, 0x00,
  0x04, 0x00, 0x00, 0x00, 0x08, 0x00, 0x00, 0x00, 0x64, 0x65, 0x6e, 0x73,
  0x65, 0x5f, 0x31, 0x35, 0x00, 0x00, 0x00, 0x00, 0x01, 0x00, 0x00, 0x00,
  0x04, 0x00, 0x00, 0x00, 0x62, 0xec, 0xff, 0xff, 0x04, 0x00, 0x00, 0x00,
  0x0e, 0x00, 0x00, 0x00, 0x64, 0x65, 0x6e, 0x73, 0x65, 0x5f, 0x31, 0x32,
  0x5f, 0x69, 0x6e, 0x70, 0x75, 0x74, 0x00, 0x00, 0x02, 0x00, 0x00, 0x00,
  0x34, 0x00, 0x00, 0x00, 0x04, 0x00, 0x00, 0x00, 0xdc, 0xff, 0xff, 0xff,
  0x10, 0x00, 0x00, 0x00, 0x04, 0x00, 0x00, 0x00, 0x13, 0x00, 0x00, 0x00,
  0x43, 0x4f, 0x4e, 0x56, 0x45, 0x52, 0x53, 0x49, 0x4f, 0x4e, 0x5f, 0x4d,
  0x45, 0x54, 0x41, 0x44, 0x41, 0x54, 0x41, 0x00, 0x08, 0x00, 0x0c, 0x00,
  0x08, 0x00, 0x04, 0x00, 0x08, 0x00, 0x00, 0x00, 0x0f, 0x00, 0x00, 0x00,
  0x04, 0x00, 0x00, 0x00, 0x13, 0x00, 0x00, 0x00, 0x6d, 0x69, 0x6e, 0x5f,
  0x72, 0x75, 0x6e, 0x74, 0x69, 0x6d, 0x65, 0x5f, 0x76, 0x65, 0x72, 0x73,
  0x69, 0x6f, 0x6e, 0x00, 0x11, 0x00, 0x00, 0x00, 0x8c, 0x12, 0x00, 0x00,
  0x84, 0x12, 0x00, 0x00, 0x58, 0x12, 0x00, 0x00, 0x08, 0x12, 0x00, 0x00,
  0x78, 0x11, 0x00, 0x00, 0x40, 0x11, 0x00, 0x00, 0xa0, 0x0f, 0x00, 0x00,
  0x90, 0x0a, 0x00, 0x00, 0x80, 0x02, 0x00, 0x00, 0xb0, 0x00, 0x00, 0x00,
  0xa8, 0x00, 0x00, 0x00, 0xa0, 0x00, 0x00, 0x00, 0x98, 0x00, 0x00, 0x00,
  0x90, 0x00, 0x00, 0x00, 0x88, 0x00, 0x00, 0x00, 0x68, 0x00, 0x00, 0x00,
  0x04, 0x00, 0x00, 0x00, 0x22, 0xed, 0xff, 0xff, 0x04, 0x00, 0x00, 0x00,
  0x54, 0x00, 0x00, 0x00, 0x0c, 0x00, 0x00, 0x00, 0x08, 0x00, 0x0e, 0x00,
  0x08, 0x00, 0x04, 0x00, 0x08, 0x00, 0x00, 0x00, 0x10, 0x00, 0x00, 0x00,
  0x24, 0x00, 0x00, 0x00, 0x00, 0x00, 0x06, 0x00, 0x08, 0x00, 0x04, 0x00,
  0x06, 0x00, 0x00, 0x00, 0x04, 0x00, 0x00, 0x00, 0x00, 0x00, 0x00, 0x00,
  0x00, 0x00, 0x0a, 0x00, 0x10, 0x00, 0x0c, 0x00, 0x08, 0x00, 0x04, 0x00,
  0x0a, 0x00, 0x00, 0x00, 0x02, 0x00, 0x00, 0x00, 0x02, 0x00, 0x00, 0x00,
  0x04, 0x00, 0x00, 0x00, 0x06, 0x00, 0x00, 0x00, 0x32, 0x2e, 0x31, 0x30,
  0x2e, 0x30, 0x00, 0x00, 0x82, 0xed, 0xff, 0xff, 0x04, 0x00, 0x00, 0x00,
  0x10, 0x00, 0x00, 0x00, 0x31, 0x2e, 0x35, 0x2e, 0x30, 0x00, 0x00, 0x00,
  0x00, 0x00, 0x00, 0x00, 0x00, 0x00, 0x00, 0x00, 0xdc, 0xe6, 0xff, 0xff,
  0xe0, 0xe6, 0xff, 0xff, 0xe4, 0xe6, 0xff, 0xff, 0xe8, 0xe6, 0xff, 0xff,
  0xec, 0xe6, 0xff, 0xff, 0xb2, 0xed, 0xff, 0xff, 0x04, 0x00, 0x00, 0x00,
  0xc0, 0x01, 0x00, 0x00, 0xcf, 0xbd, 0xcd, 0x3e, 0x5e, 0x8e, 0x8b, 0x3e,
  0x21, 0x67, 0xa3, 0xbe, 0x28, 0x48, 0x7e, 0xbf, 0x2d, 0x36, 0x24, 0xbe,
  0x3a, 0x23, 0x65, 0xc0, 0x02, 0x49, 0x80, 0xbf, 0xd0, 0xfc, 0x60, 0x3d,
  0x87, 0x7b, 0x37, 0x40, 0x51, 0x61, 0x60, 0x3f, 0x9e, 0xff, 0x9b, 0xbe,
  0x98, 0x02, 0x45, 0x3f, 0x4e, 0xed, 0x9b, 0xbe, 0xde, 0x7b, 0x0a, 0xbe,
  0x48, 0x7c, 0x43, 0xbe, 0x8b, 0x50, 0x4d, 0x3e, 0x17, 0x07, 0x02, 0xbf,
  0x93, 0x49, 0xdd, 0xbe, 0xfa, 0x09, 0xcf, 0xbe, 0xdf, 0xaa, 0xd8, 0xbe,
  0x02, 0xf2, 0x97, 0x3d, 0xdb, 0xf5, 0xe4, 0xbe, 0xa9, 0xa6, 0x7a, 0x3f,
  0xde, 0x20, 0x44, 0xbe, 0x56, 0x5a, 0xb6, 0x3f, 0x1e, 0x80, 0xa0, 0x3d,
  0x0b, 0xaa, 0xe4, 0xbf, 0xf2, 0xaa, 0xe1, 0x3e, 0x98, 0x36, 0x68, 0x3e,
  0xd4, 0x63, 0x18, 0x3f, 0x97, 0x62, 0x38, 0xbc, 0x2c, 0x02, 0xe8, 0xbd,
  0x39, 0x73, 0xdc, 0x3e, 0x63, 0x40, 0x97, 0xbe, 0x1d, 0x6f, 0x2a, 0xbe,
  0x37, 0xef, 0x38, 0xbe, 0xfa, 0xfe, 0xe4, 0x3d, 0x43, 0xfb, 0x04, 0x3f,
  0x71, 0xb4, 0x26, 0x3f, 0xc8, 0xc9, 0x24, 0xbe, 0x31, 0x4e, 0xf6, 0xbf,
  0xe2, 0x45, 0x04, 0xbf, 0x72, 0x3f, 0x61, 0xbe, 0x08, 0x8d, 0x4d, 0x3f,
  0xf3, 0xce, 0xcf, 0xbe, 0xbb, 0xd6, 0x2f, 0x3f, 0xa1, 0xa9, 0x0e, 0xbe,
  0x61, 0xf1, 0x21, 0xbf, 0x4e, 0x3c, 0xa7, 0x3e, 0xef, 0x05, 0x02, 0x3f,
  0x5d, 0x55, 0xec, 0x3e, 0x23, 0x42, 0x8d, 0x3f, 0xff, 0x3e, 0x2d, 0xbe,
  0xc3, 0xe0, 0xce, 0x3f, 0x85, 0xe2, 0x11, 0x3e, 0x10, 0x9a, 0xbb, 0x3d,
  0x6d, 0x52, 0x55, 0xc0, 0xc6, 0xbb, 0x63, 0xbf, 0x63, 0xaf, 0x5c, 0x3f,
  0xff, 0xa3, 0x5e, 0xbf, 0xe0, 0xfe, 0xa2, 0xbe, 0x68, 0x74, 0xb0, 0x3d,
  0x52, 0x2a, 0x80, 0xbe, 0xda, 0x66, 0xa2, 0xbf, 0x5d, 0xc0, 0xc4, 0x3e,
  0xd7, 0x71, 0x8e, 0xbe, 0xd3, 0xdf, 0xc7, 0x3e, 0xfc, 0x5f, 0xaf, 0x3f,
  0x46, 0x77, 0x45, 0x3e, 0x09, 0x08, 0xb1, 0x3f, 0x2e, 0x80, 0xb3, 0x3f,
  0x88, 0xf6, 0xed, 0xbe, 0x07, 0xbb, 0xf1, 0xbf, 0xc6, 0x51, 0x3f, 0x3f,
  0xa2, 0x48, 0x03, 0x3f, 0xa5, 0x0f, 0x34, 0xc0, 0x8a, 0x06, 0x72, 0xbe,
  0x60, 0x71, 0x99, 0xbf, 0x3d, 0x22, 0xa0, 0x3e, 0x25, 0x2b, 0x2a, 0x3f,
  0x6d, 0xa4, 0x7b, 0x3c, 0x61, 0x36, 0xd5, 0xbe, 0x68, 0x9a, 0x83, 0x3e,
  0xee, 0xeb, 0xbf, 0x3e, 0xf8, 0x33, 0x52, 0xbe, 0x0c, 0x6c, 0xbf, 0xbe,
  0x16, 0x0d, 0xc1, 0xbe, 0x18, 0xf4, 0x8a, 0x3e, 0xd6, 0x4c, 0x9e, 0x3f,
  0x2a, 0xab, 0xe6, 0x3f, 0x8c, 0xd5, 0xaa, 0x3f, 0x77, 0xde, 0xef, 0xbf,
  0x90, 0xc5, 0x74, 0x3e, 0x8e, 0xd0, 0x38, 0xc0, 0x1b, 0x4b, 0x67, 0x3e,
  0xe6, 0x3b, 0xe7, 0x3f, 0x12, 0xa6, 0xcd, 0xbd, 0x49, 0x8e, 0x86, 0xbd,
  0xf3, 0x93, 0xb2, 0x3e, 0x24, 0x65, 0xd2, 0x3e, 0xd7, 0xf7, 0x40, 0x3e,
  0xdf, 0x2e, 0x4f, 0x3f, 0xd1, 0x86, 0x6e, 0xc0, 0x82, 0x16, 0xc2, 0xbe,
  0x7a, 0x78, 0x2a, 0xbf, 0x03, 0xa2, 0xa4, 0xc0, 0xb1, 0x15, 0x9e, 0x3f,
  0x59, 0x50, 0x00, 0x40, 0x84, 0xb1, 0x70, 0x3e, 0x81, 0x2d, 0x38, 0x3f,
  0x6a, 0x81, 0x2f, 0x3d, 0x33, 0xe6, 0x8e, 0xc0, 0x7e, 0xef, 0xff, 0xff,
  0x04, 0x00, 0x00, 0x00, 0x00, 0x08, 0x00, 0x00, 0x45, 0x1d, 0x18, 0x3e,
  0xdb, 0xec, 0x8f, 0x3e, 0xb4, 0x3b, 0x46, 0xbe, 0x2e, 0x65, 0x44, 0xbe,
  0xe0, 0xe8, 0x08, 0xbe, 0x72, 0x98, 0x93, 0x3d, 0x00, 0x95, 0xc5, 0xba,
  0xa9, 0xbc, 0x8f, 0x3e, 0x3a, 0x5c, 0x76, 0xbe, 0xcd, 0x63, 0x40, 0xbe,
  0x96, 0x51, 0x84, 0xbe, 0x70, 0x75, 0x74, 0x3d, 0xd2, 0x92, 0xef, 0xbd,
  0x68, 0x0a, 0x2d, 0xbe, 0xc0, 0x45, 0x4c, 0x3c, 0x30, 0xc2, 0x68, 0xbe,
  0x85, 0xc2, 0xa9, 0x3e, 0xed, 0x6a, 0x93, 0x3e, 0xe6, 0x9f, 0x30, 0x3e,
  0x6d, 0x73, 0xa6, 0xbe, 0x2e, 0xc4, 0x25, 0x3e, 0x88, 0x98, 0xfd, 0xbd,
  0xc2, 0xee, 0xc7, 0x3d, 0xe3, 0x03, 0x96, 0xbe, 0x00, 0x89, 0xa6, 0x3e,
  0x97, 0x7b, 0x78, 0xbe, 0xec, 0xd8, 0x9d, 0xbe, 0xd9, 0x07, 0x86, 0xbd,
  0x55, 0xc2, 0x10, 0xbe, 0x05, 0x11, 0xaa, 0xbe, 0x75, 0xa7, 0x39, 0xbc,
  0x19, 0xcc, 0x2b, 0x3e, 0x1e, 0x7b, 0x9d, 0x3e, 0x0a, 0xf8, 0x39, 0x3e,
  0x06, 0x7f, 0x56, 0x3e, 0xe5, 0x2e, 0xa7, 0xbe, 0xba, 0x0a, 0x21, 0x3e,
  0x15, 0x7a, 0x37, 0xbe, 0xdd, 0x9c, 0x18, 0xbe, 0x35, 0xf6, 0x9f, 0xbe,
  0x81, 0xff, 0x88, 0xbd, 0x38, 0x50, 0x0d, 0x3e, 0x26, 0xc0, 0x36, 0x3e,
  0xb7, 0x5b, 0x48, 0xbe, 0x13, 0xa9, 0x6d, 0xbd, 0x1c, 0x71, 0xa3, 0xbe,
  0x28, 0x40, 0xc4, 0xbd, 0x23, 0x2d, 0x6c, 0xbe, 0xe2, 0x6d, 0x47, 0x3e,
  0xbe, 0x07, 0x01, 0x3e, 0x4a, 0xde, 0x79, 0x3e, 0x48, 0xe8, 0xad, 0x3d,
  0x8a, 0x04, 0x6d, 0x3b, 0xa0, 0xfc, 0x7a, 0xbe, 0xd0, 0x1b, 0xb7, 0xbe,
  0x81, 0xc7, 0x67, 0x3e, 0x1b, 0xbe, 0x3b, 0x3e, 0x04, 0xd6, 0x0e, 0xbe,
  0x4a, 0x08, 0x7b, 0x3e, 0xe6, 0xa2, 0x5d, 0xbe, 0x5d, 0x14, 0x46, 0x3e,
  0x2e, 0xf7, 0xe4, 0x3d, 0x9a, 0xbf, 0x5f, 0x3e, 0xc5, 0x64, 0x3c, 0x3e,
  0x3e, 0x48, 0xa1, 0xbc, 0x1f, 0x2b, 0x2f, 0xbe, 0xb8, 0x7a, 0x0d, 0xbd,
  0x8c, 0x43, 0x4f, 0x3e, 0xa4, 0x77, 0xa5, 0xbe, 0xf8, 0x1f, 0x32, 0x3e,
  0x45, 0x30, 0x81, 0x3e, 0xea, 0x7d, 0xd3, 0xbe, 0x8f, 0x6a, 0x81, 0xbe,
  0x92, 0x6a, 0x2f, 0x3e, 0x61, 0x7f, 0x8f, 0x3e, 0xa2, 0xb2, 0x38, 0x3e,
  0x59, 0x45, 0x43, 0xbe, 0x20, 0xe1, 0xdc, 0x3d, 0xe8, 0x13, 0x75, 0x3d,
  0xea, 0xa1, 0x4f, 0xbe, 0x53, 0xc7, 0x83, 0x3e, 0xc3, 0xe4, 0xae, 0x3e,
  0x0f, 0x96, 0xa7, 0xbe, 0x91, 0x99, 0xae, 0x3e, 0xad, 0x08, 0x66, 0xbe,
  0x03, 0xe5, 0xa2, 0x3e, 0xa0, 0x07, 0x3e, 0xbd, 0x10, 0xce, 0xbf, 0xbe,
  0x20, 0x28, 0x01, 0xbd, 0x82, 0x2f, 0x1f, 0x3e, 0xd0, 0x86, 0xbe, 0x3c,
  0x10, 0x36, 0x5d, 0x3e, 0xd0, 0xbf, 0x54, 0xbe, 0x68, 0xab, 0x2f, 0xbd,
  0x82, 0xa0, 0x89, 0x3d, 0x8e, 0x5c, 0x9e, 0xbc, 0xb8, 0x97, 0x59, 0x3f,
  0xa9, 0x13, 0x66, 0x3e, 0xa8, 0x94, 0xc9, 0xbd, 0x32, 0xfe, 0xb0, 0x3f,
  0x4c, 0x64, 0xfd, 0xbd, 0x4e, 0x0e, 0x62, 0x3d, 0x78, 0xd3, 0x91, 0xbe,
  0x4d, 0x60, 0x13, 0x3f, 0x6d, 0x5a, 0x05, 0x40, 0x80, 0xca, 0x03, 0x40,
  0x0a, 0x80, 0x94, 0x3d, 0x5a, 0xed, 0x9a, 0xbe, 0x46, 0xfc, 0x91, 0xbe,
  0xa0, 0xfb, 0xec, 0x3c, 0xa4, 0x90, 0xfe, 0x3d, 0x65, 0x8f, 0xfd, 0x3f,
  0x64, 0xbe, 0x89, 0x3d, 0xff, 0x0e, 0x47, 0xbe, 0x4e, 0x36, 0x08, 0x3e,
  0xd7, 0x3d, 0xa8, 0xbe, 0xd2, 0xc0, 0x08, 0x40, 0x6c, 0x50, 0x90, 0xbd,
  0xf5, 0xfe, 0xc1, 0x3f, 0x1d, 0xb8, 0xb8, 0xbe, 0x01, 0x36, 0xa9, 0xbf,
  0x3b, 0x56, 0xaf, 0x3e, 0xa1, 0xb9, 0xa2, 0xbe, 0x26, 0x94, 0x00, 0xbf,
  0xdc, 0x5a, 0x2b, 0x3f, 0x6a, 0xcb, 0x0b, 0xbf, 0x5c, 0xfc, 0xe8, 0x3e,
  0xf5, 0xdc, 0xd6, 0x3f, 0x59, 0x20, 0xc8, 0xbe, 0x46, 0x21, 0x43, 0x3e,
  0x29, 0xf0, 0xa4, 0x3e, 0xce, 0x43, 0x2c, 0xbe, 0xaa, 0xa8, 0x9c, 0xbe,
  0xe3, 0xfd, 0xa7, 0xbe, 0xa8, 0x96, 0x71, 0xbd, 0x70, 0x60, 0x9f, 0x3d,
  0xf9, 0xad, 0x05, 0xbd, 0xee, 0x9b, 0x9f, 0x3d, 0xc0, 0x40, 0x5b, 0x3c,
  0x1b, 0xbb, 0xa9, 0x3e, 0x22, 0x50, 0x97, 0xbe, 0xf5, 0xe3, 0x95, 0x3e,
  0xa0, 0x4f, 0xd3, 0xbc, 0xc5, 0x2c, 0xb2, 0x3d, 0xe9, 0x7e, 0xb0, 0x3e,
  0x64, 0x1a, 0xff, 0xbd, 0x23, 0x6a, 0xa8, 0x3e, 0xdb, 0x0d, 0x0f, 0xbe,
  0x84, 0x81, 0x2f, 0xbe, 0xe2, 0xf9, 0x49, 0x3e, 0xd6, 0x17, 0x9c, 0xbe,
  0x08, 0x20, 0xbc, 0x3d, 0x16, 0xa8, 0x90, 0x3d, 0xe0, 0x8e, 0x5d, 0x3d,
  0xad, 0xa0, 0xae, 0xbd, 0x24, 0xa0, 0x97, 0x3d, 0xad, 0xae, 0x8e, 0x3e,
  0x61, 0x34, 0x18, 0xbe, 0x0f, 0x91, 0x82, 0x3e, 0xeb, 0x06, 0x8d, 0xbd,
  0xb1, 0xc8, 0x80, 0xbf, 0x2d, 0xc3, 0x01, 0x3e, 0xfb, 0x30, 0x91, 0x3e,
  0x8c, 0x6c, 0x83, 0x3e, 0x0d, 0x18, 0x33, 0xbe, 0xff, 0xc8, 0x4b, 0x3e,
  0x79, 0x41, 0x31, 0xbe, 0x83, 0x4c, 0xc5, 0xbd, 0x46, 0x50, 0x0e, 0x3f,
  0xc2, 0x74, 0x36, 0x40, 0xd6, 0x85, 0x3d, 0xbe, 0x40, 0xb6, 0xc8, 0x3c,
  0x01, 0xae, 0x55, 0x3f, 0xc0, 0xf3, 0xf0, 0xbd, 0xdd, 0xb4, 0x94, 0x3e,
  0x9d, 0x2a, 0x23, 0x40, 0x55, 0xa3, 0x9e, 0x3e, 0xe0, 0x25, 0x74, 0xbc,
  0x00, 0x75, 0x4b, 0xbe, 0xe2, 0x47, 0x92, 0xbe, 0x64, 0x30, 0x6a, 0x40,
  0xc8, 0x4b, 0x6a, 0xbe, 0x24, 0x5b, 0x94, 0x3f, 0x6a, 0x1d, 0x03, 0x40,
  0xc3, 0x68, 0x33, 0xbf, 0xb3, 0xe5, 0x3d, 0xbe, 0xc6, 0x08, 0x43, 0x3e,
  0x1a, 0x16, 0x1a, 0x3e, 0x34, 0x90, 0x23, 0xc0, 0xd4, 0xc5, 0x35, 0xbe,
  0xc6, 0xdf, 0x03, 0xbf, 0x5d, 0x0e, 0x2c, 0xbf, 0xaa, 0x08, 0xa1, 0xbe,
  0xf7, 0xae, 0x30, 0xbe, 0xa4, 0xb4, 0xf8, 0x3d, 0xaa, 0x33, 0x02, 0x40,
  0xf0, 0x42, 0xd7, 0x3c, 0x16, 0xe5, 0x2b, 0xbe, 0x94, 0x5b, 0x90, 0xbe,
  0x2a, 0xcc, 0xab, 0x3f, 0x3c, 0xce, 0x97, 0xbf, 0xf6, 0xae, 0x82, 0x3f,
  0x20, 0xb4, 0x24, 0x3e, 0x10, 0x73, 0xc9, 0x3c, 0x86, 0x86, 0x69, 0x3f,
  0x58, 0x6f, 0x60, 0x3d, 0xd0, 0x5c, 0xfb, 0x3c, 0x77, 0x33, 0xf2, 0x3f,
  0x60, 0xdf, 0xe0, 0xbd, 0x1c, 0x8c, 0xa9, 0xbd, 0xe5, 0x54, 0x8e, 0x3e,
  0x20, 0x92, 0x0f, 0xbe, 0xa8, 0xb5, 0x2f, 0x3f, 0x4d, 0x2e, 0xab, 0x3e,
  0xed, 0xa2, 0xbd, 0x3f, 0x79, 0xbc, 0x24, 0x40, 0xb7, 0x60, 0x93, 0xbe,
  0x5c, 0x0b, 0x8e, 0xbd, 0xd7, 0x3e, 0x7d, 0x3e, 0x5b, 0x1e, 0x07, 0x3f,
  0x81, 0x8c, 0x8b, 0x3f, 0xb4, 0x5d, 0xd0, 0x3e, 0x20, 0x16, 0x2a, 0x3f,
  0x2c, 0x43, 0xf7, 0xbe, 0x36, 0x5f, 0x18, 0x3e, 0x7c, 0xf5, 0x16, 0xbe,
  0xcc, 0x11, 0xde, 0x3d, 0xd1, 0x94, 0xb4, 0xbe, 0xf0, 0x55, 0x80, 0x3c,
  0x14, 0xc8, 0x89, 0xbd, 0x24, 0x43, 0x22, 0xbe, 0x7a, 0x5d, 0x51, 0xbe,
  0x03, 0xed, 0xab, 0xbe, 0x98, 0x10, 0x2c, 0xbd, 0x9a, 0x1c, 0x3c, 0x3e,
  0x0e, 0x6b, 0x50, 0x3e, 0xc0, 0x7c, 0xc4, 0xbd, 0x60, 0x8d, 0x0f, 0x3e,
  0x9c, 0x31, 0x13, 0x3e, 0x80, 0x39, 0xc3, 0x3b, 0x31, 0x96, 0x9e, 0xbe,
  0xe4, 0x15, 0xab, 0x3d, 0x9a, 0xf0, 0x56, 0x3e, 0xe0, 0x1e, 0x56, 0xbc,
  0xe8, 0xee, 0x3f, 0x3d, 0x90, 0x80, 0xa3, 0x3d, 0xd7, 0x51, 0x65, 0xbe,
  0x1b, 0xfb, 0x94, 0x3e, 0x72, 0x72, 0x35, 0x3e, 0x14, 0x0c, 0x04, 0xbe,
  0xbe, 0xac, 0x56, 0x3e, 0xb4, 0xcb, 0xea, 0xbd, 0xcc, 0x32, 0xe8, 0xbd,
  0x80, 0xdc, 0x05, 0xbc, 0x40, 0xcc, 0x10, 0x3c, 0x24, 0x82, 0xc9, 0xbd,
  0x2a, 0xae, 0xc3, 0x3f, 0xd0, 0x84, 0xa3, 0x3d, 0xed, 0x84, 0x4c, 0xbe,
  0xaa, 0xa0, 0x49, 0xbf, 0x78, 0xa3, 0x6e, 0xbd, 0xab, 0x67, 0x74, 0x3f,
  0xc0, 0xeb, 0x91, 0x3b, 0xd1, 0xb6, 0xe5, 0x3e, 0x88, 0x3c, 0x4e, 0xc0,
  0x8a, 0x96, 0x45, 0xc0, 0xbd, 0x6b, 0xf3, 0x3c, 0xc5, 0x07, 0xa8, 0x3e,
  0xe6, 0xc1, 0x56, 0x3f, 0x48, 0x2e, 0xa1, 0x3e, 0x6c, 0x45, 0xb3, 0x3d,
  0x88, 0x90, 0x09, 0xc0, 0x5f, 0xa7, 0xa3, 0x3e, 0xc1, 0x98, 0x20, 0x3e,
  0x41, 0x5a, 0x93, 0x3e, 0xc2, 0x52, 0x97, 0x3e, 0xdc, 0x90, 0x6e, 0xc0,
  0xc0, 0x86, 0x0c, 0xbc, 0xdf, 0xc7, 0xd9, 0xbf, 0xe1, 0xa2, 0x5a, 0x3f,
  0xc8, 0x06, 0x00, 0x40, 0x74, 0x2b, 0xa4, 0xbe, 0x9b, 0xa0, 0x81, 0xbe,
  0xdc, 0x5d, 0xad, 0x3f, 0xb4, 0x33, 0xb0, 0xc0, 0xce, 0x39, 0xb8, 0x3f,
  0x5c, 0x18, 0xe4, 0x3e, 0x74, 0xb7, 0xfb, 0xbf, 0x52, 0x86, 0x39, 0x40,
  0x52, 0x36, 0xaa, 0xbd, 0xfb, 0x44, 0x9d, 0x3e, 0xcc, 0xb0, 0x29, 0x40,
  0x72, 0x90, 0x21, 0x3e, 0x80, 0x9a, 0x9c, 0xbe, 0x90, 0x36, 0x61, 0xbd,
  0xb4, 0x2a, 0xfb, 0x3f, 0x96, 0xc1, 0x6b, 0x3e, 0xe1, 0xbf, 0xb6, 0xbf,
  0x90, 0x23, 0x9b, 0xbe, 0x80, 0xd0, 0x0b, 0xbb, 0x36, 0x88, 0x09, 0xbf,
  0xf8, 0x49, 0xfb, 0xbd, 0x20, 0xd6, 0x87, 0xbc, 0xc1, 0xbf, 0x64, 0xbe,
  0xd0, 0x23, 0x24, 0x3d, 0xd1, 0xd8, 0x8b, 0xbe, 0x80, 0xdb, 0x0f, 0xbb,
  0xa1, 0x05, 0x92, 0x3e, 0x35, 0x0a, 0x4d, 0xc0, 0xf0, 0xfb, 0x94, 0xbe,
  0x1a, 0x2b, 0x68, 0x3f, 0x29, 0xb5, 0x61, 0xbf, 0xdd, 0x66, 0x65, 0x3e,
  0x7f, 0xff, 0x92, 0x3e, 0x93, 0x08, 0x65, 0x3e, 0x43, 0x47, 0x43, 0x3e,
  0x3c, 0x02, 0x92, 0x40, 0x26, 0x61, 0xb3, 0x3d, 0x7e, 0x17, 0xc4, 0x3f,
  0xf0, 0x50, 0x4d, 0x40, 0xbc, 0xa6, 0xf4, 0x3f, 0xb8, 0xf0, 0x20, 0x3e,
  0x0d, 0x12, 0xa2, 0x3e, 0x27, 0x55, 0xc5, 0x3e, 0x62, 0x0c, 0x66, 0x3e,
  0x6b, 0x83, 0x93, 0xbe, 0x48, 0xd4, 0xe3, 0x3d, 0x84, 0x4f, 0x42, 0x3e,
  0x07, 0x88, 0x37, 0x40, 0x26, 0x43, 0x9d, 0x3f, 0x40, 0x5b, 0x04, 0x3d,
  0x61, 0x8a, 0xa3, 0x3e, 0xe2, 0x34, 0xd1, 0xbe, 0x86, 0x8a, 0x5b, 0xbe,
  0xc2, 0x57, 0x22, 0x3e, 0xf8, 0xe9, 0xf5, 0x3e, 0x20, 0xbc, 0xd4, 0x3c,
  0x60, 0x85, 0x98, 0x3c, 0x7c, 0x46, 0x8c, 0xbe, 0x82, 0x18, 0x16, 0xbe,
  0x72, 0xca, 0xd8, 0x3f, 0x89, 0x29, 0x32, 0xbe, 0x8b, 0x2b, 0xfb, 0x3e,
  0xcd, 0x96, 0xd2, 0xbf, 0xe5, 0x1f, 0x6c, 0xbe, 0xd7, 0x21, 0x44, 0xbe,
  0x09, 0x19, 0xa0, 0xbd, 0x35, 0x41, 0x6c, 0xbf, 0x65, 0x17, 0xb1, 0x3f,
  0x5b, 0x62, 0x37, 0xbf, 0x77, 0x42, 0x78, 0x3f, 0x72, 0x1a, 0xf2, 0x3f,
  0x9e, 0x49, 0x0d, 0xc0, 0x6a, 0xe4, 0x51, 0xbe, 0x50, 0x62, 0x8d, 0x3c,
  0x82, 0x51, 0x0c, 0xc0, 0x50, 0x79, 0x93, 0xbe, 0x34, 0xba, 0xa3, 0x3f,
  0x0b, 0xc5, 0x0a, 0xbe, 0x9c, 0x47, 0x92, 0xbf, 0x32, 0xdc, 0x8e, 0xbf,
  0x47, 0xb5, 0x85, 0xbf, 0x13, 0xb3, 0x92, 0xbe, 0x0d, 0xc7, 0x05, 0x3e,
  0x86, 0x69, 0x8a, 0x3f, 0xc8, 0x9d, 0x28, 0x3a, 0x59, 0x9b, 0x49, 0x3e,
  0x61, 0x5e, 0x91, 0xbf, 0x36, 0x2a, 0x8a, 0xbe, 0x37, 0x37, 0xd6, 0x3d,
  0xf2, 0x30, 0x64, 0x3e, 0x80, 0x55, 0x2f, 0xbe, 0xcb, 0x0e, 0x3c, 0xbe,
  0x5e, 0x9d, 0x6e, 0x3e, 0x35, 0x12, 0xf6, 0xbf, 0x1d, 0x8a, 0xcc, 0x3f,
  0x79, 0x9e, 0x0b, 0x3f, 0xb7, 0x03, 0x86, 0x3e, 0xcb, 0xd0, 0x80, 0xbd,
  0xb7, 0xf4, 0xb3, 0x3f, 0x01, 0xeb, 0x5f, 0xc0, 0x5d, 0xf8, 0xa2, 0x3f,
  0x60, 0x4a, 0xce, 0xbe, 0xdf, 0x2a, 0x29, 0xc0, 0x12, 0xd9, 0x6a, 0xbe,
  0xb2, 0x52, 0x62, 0x3e, 0xe3, 0xfa, 0x1c, 0xbe, 0x0a, 0x6f, 0xa6, 0xbe,
  0xab, 0x3c, 0x1e, 0xbe, 0xaa, 0x00, 0x3e, 0x3e, 0x00, 0x3d, 0xef, 0xbc,
  0xa7, 0x55, 0x17, 0xbe, 0x00, 0x4a, 0xdb, 0xbd, 0x04, 0x30, 0x78, 0xbe,
  0x50, 0x86, 0x67, 0x3d, 0x84, 0xda, 0xaf, 0xbe, 0xed, 0xc8, 0x8c, 0x3e,
  0x81, 0xc3, 0x86, 0x3e, 0xbb, 0x8b, 0x65, 0xbe, 0xb7, 0x71, 0x8a, 0xbe,
  0xe8, 0x9d, 0xfc, 0xbd, 0xcc, 0x25, 0x8d, 0xbe, 0x77, 0x64, 0x89, 0x3e,
  0xd4, 0xfa, 0xce, 0x3d, 0xeb, 0x73, 0x03, 0xbe, 0x85, 0x98, 0x80, 0x3e,
  0xd8, 0x0e, 0xc2, 0xbd, 0x08, 0x68, 0xca, 0x3d, 0x60, 0xb6, 0xd8, 0xbc,
  0x7a, 0xf9, 0xef, 0xbd, 0x80, 0x49, 0xb0, 0x3c, 0x20, 0x32, 0xa2, 0xbe,
  0x44, 0xfe, 0xb2, 0xbe, 0x53, 0xe2, 0x73, 0xbe, 0xc9, 0xd2, 0x39, 0xbe,
  0x07, 0x11, 0x11, 0xbe, 0x62, 0x85, 0x07, 0xc0, 0x09, 0x62, 0xc2, 0xbd,
  0xd0, 0x34, 0xd8, 0x3c, 0x20, 0x15, 0x3c, 0xbf, 0x6d, 0x8a, 0x9c, 0x3e,
  0xc1, 0x0b, 0xd7, 0x3f, 0xcc, 0x4f, 0xfb, 0xbd, 0xd1, 0xcb, 0x14, 0x3f,
  0xbe, 0x67, 0xa6, 0xbf, 0xd9, 0x45, 0x96, 0x3f, 0x47, 0x01, 0x36, 0x3d,
  0x4e, 0x1b, 0x80, 0x3e, 0x50, 0x79, 0x23, 0x40, 0xd4, 0x85, 0x89, 0xbe,
  0xdf, 0xeb, 0xcf, 0xbd, 0xcd, 0xd6, 0x60, 0x3f, 0x7d, 0x20, 0x38, 0xbe,
  0xad, 0x4e, 0x00, 0xbe, 0x4e, 0x3c, 0x52, 0x3e, 0x0f, 0x6e, 0x51, 0x3e,
  0x2e, 0x62, 0xad, 0x3f, 0x28, 0x14, 0x69, 0x3d, 0x5a, 0x6a, 0xc3, 0xbd,
  0x2a, 0x71, 0x5d, 0x40, 0x28, 0xcf, 0x27, 0x3f, 0xb0, 0x30, 0x85, 0x3d,
  0x87, 0x8e, 0x03, 0x3e, 0x01, 0x89, 0xdd, 0x3f, 0x7a, 0xe6, 0x28, 0xc0,
  0x3a, 0x09, 0xd3, 0x3f, 0x32, 0x55, 0xb7, 0xbe, 0xaa, 0xf3, 0x15, 0xc0,
  0xee, 0x57, 0x8b, 0xbe, 0x78, 0x89, 0xb1, 0xbd, 0x90, 0x13, 0x97, 0xbd,
  0xaf, 0x3c, 0x84, 0x3e, 0x72, 0x95, 0x02, 0xbe, 0x95, 0x62, 0x05, 0xbd,
  0x00, 0x2c, 0xe1, 0xb9, 0xc8, 0x0f, 0x18, 0x3d, 0x76, 0x02, 0xa1, 0xbe,
  0x4f, 0x4e, 0xb0, 0xbe, 0x7d, 0xc4, 0x39, 0xbe, 0xbb, 0x00, 0xa6, 0xbe,
  0x60, 0xbf, 0x8a, 0x3e, 0x68, 0xed, 0x0c, 0xbe, 0x34, 0x22, 0x14, 0xbe,
  0xef, 0x33, 0x87, 0xbe, 0x96, 0xf9, 0x29, 0x3e, 0x58, 0xbb, 0x03, 0xbd,
  0x48, 0x17, 0x13, 0x3d, 0x51, 0x06, 0x88, 0x3e, 0x3e, 0x0b, 0x9a, 0xbe,
  0x8a, 0x6d, 0x72, 0x3e, 0x1e, 0x6f, 0x2f, 0xbe, 0xc5, 0x84, 0xbd, 0xbd,
  0xe8, 0x7e, 0x06, 0x3e, 0x74, 0x74, 0xa8, 0xbe, 0x80, 0x03, 0xf2, 0xbd,
  0xaa, 0x2d, 0xb8, 0xbc, 0x0b, 0x1f, 0x09, 0x3e, 0x07, 0x9d, 0x41, 0xbe,
  0x0f, 0x4a, 0xcf, 0xbc, 0xbb, 0xb2, 0x92, 0x3e, 0x01, 0xdc, 0x1d, 0x40,
  0xe8, 0x28, 0x8b, 0x3d, 0x09, 0x17, 0x98, 0x3e, 0x09, 0x97, 0x94, 0x3f,
  0x80, 0x6e, 0xdb, 0x3d, 0xeb, 0xd7, 0xa9, 0xbe, 0xe6, 0x42, 0xfe, 0xbd,
  0x89, 0x49, 0x98, 0x3f, 0xcf, 0x89, 0x8c, 0x3f, 0x79, 0x46, 0xad, 0xbf,
  0xe1, 0x00, 0x8e, 0x3a, 0x8d, 0x36, 0x32, 0x3e, 0xec, 0xda, 0x83, 0xbf,
  0x72, 0xe3, 0x63, 0x3e, 0xf8, 0x7d, 0x99, 0xbd, 0x03, 0x68, 0x9a, 0xbf,
  0xe7, 0xb0, 0x99, 0x3e, 0x52, 0x8b, 0x58, 0x3e, 0x44, 0xcf, 0xb2, 0xbe,
  0x11, 0x2e, 0x83, 0x3e, 0xe9, 0x8e, 0x1a, 0xc0, 0x4c, 0x66, 0xa7, 0xbd,
  0x35, 0x75, 0x1e, 0x3f, 0x72, 0x08, 0xc7, 0xbf, 0x3c, 0xc2, 0x82, 0xbe,
  0xa3, 0x6e, 0x8c, 0x3e, 0x72, 0xbb, 0x0f, 0xbe, 0x82, 0x57, 0x25, 0xbf,
  0xd3, 0xe3, 0x97, 0x40, 0x06, 0x92, 0x6d, 0xbe, 0x53, 0xc2, 0x9b, 0x3f,
  0xba, 0xb0, 0x2a, 0x40, 0x8a, 0xf7, 0xff, 0xff, 0x04, 0x00, 0x00, 0x00,
  0x00, 0x05, 0x00, 0x00, 0x23, 0x42, 0x53, 0x3f, 0x02, 0xeb, 0xfb, 0x3e,
  0xf6, 0x89, 0xb0, 0x3f, 0x72, 0xdb, 0x01, 0x3e, 0xf5, 0xc8, 0xf1, 0x3e,
  0x16, 0xa8, 0x4a, 0xbe, 0x60, 0x90, 0xd3, 0xbe, 0x2f, 0xb5, 0x09, 0xbf,
  0x7e, 0xbe, 0xc8, 0xbf, 0xa3, 0xdc, 0x97, 0xbe, 0x11, 0xe5, 0x66, 0xbe,
  0xab, 0x32, 0xa2, 0x3e, 0x7f, 0x72, 0xa8, 0xbe, 0xe0, 0x08, 0x69, 0x3d,
  0x9f, 0x7c, 0x8a, 0xbd, 0x44, 0xce, 0x99, 0xbd, 0x50, 0x6e, 0x8b, 0xbe,
  0x0e, 0x9c, 0x92, 0x3c, 0x8b, 0xb9, 0x91, 0xbe, 0x50, 0xf7, 0x4f, 0x3d,
  0xaf, 0x2d, 0xa0, 0xbe, 0x10, 0x00, 0xb4, 0x3d, 0x44, 0x4f, 0x58, 0xbe,
  0x00, 0x31, 0xd4, 0x3d, 0xcd, 0xdd, 0x88, 0x3e, 0x24, 0x5c, 0xbc, 0xbd,
  0xfe, 0x83, 0x3e, 0xbe, 0x84, 0xd8, 0xdf, 0xbd, 0xbc, 0x5f, 0x6d, 0xbe,
  0xc0, 0x96, 0xf3, 0xbd, 0xa5, 0x61, 0x81, 0x3f, 0x38, 0x87, 0xa3, 0xbd,
  0x43, 0xce, 0x85, 0x3f, 0x13, 0xd8, 0xb9, 0x3e, 0x4b, 0x63, 0x57, 0xbe,
  0xe2, 0xec, 0x74, 0x3e, 0x8b, 0xe2, 0xb4, 0xc0, 0x51, 0x74, 0x92, 0x3d,
  0x02, 0x2e, 0xc7, 0xbd, 0x26, 0x8d, 0xc2, 0xc0, 0x40, 0xcc, 0x0c, 0x3c,
  0xa7, 0x34, 0x82, 0xbe, 0xd6, 0x6c, 0x3d, 0x3e, 0x60, 0xff, 0xb3, 0x3c,
  0x3a, 0x51, 0xbb, 0xbe, 0x8e, 0x87, 0x00, 0x3e, 0x84, 0xc9, 0x80, 0xbd,
  0xf7, 0x11, 0x4c, 0xbe, 0x98, 0x7b, 0x69, 0x3d, 0xba, 0x88, 0x8b, 0xbe,
  0xb3, 0xa2, 0x15, 0xbe, 0x3c, 0x57, 0x69, 0x3f, 0xf4, 0x6a, 0x02, 0xc0,
  0x00, 0x73, 0x4f, 0xbc, 0xee, 0xed, 0x07, 0x3f, 0xf2, 0x45, 0xb9, 0xbe,
  0x1c, 0xe3, 0x8d, 0x40, 0x74, 0x00, 0x8f, 0x3f, 0x16, 0x76, 0x55, 0x3f,
  0x38, 0x51, 0xa5, 0x3f, 0x7c, 0x33, 0xaf, 0xbe, 0xba, 0x2f, 0x4d, 0x3e,
  0x00, 0x3f, 0x98, 0xbb, 0x5c, 0xfd, 0xb1, 0x3d, 0xf5, 0x27, 0xba, 0xbe,
  0xfb, 0xae, 0xad, 0x3e, 0x25, 0xbe, 0x92, 0x3e, 0x10, 0x15, 0x51, 0x3d,
  0x62, 0x5b, 0xb5, 0xbe, 0xa4, 0x49, 0x28, 0xbe, 0xf5, 0x21, 0xa3, 0x3f,
  0x65, 0x68, 0x55, 0xbf, 0xf4, 0x9f, 0x14, 0x3f, 0x6c, 0x51, 0xec, 0x3d,
  0xf7, 0x1d, 0x07, 0xbf, 0xcc, 0x3b, 0x90, 0xbe, 0xf4, 0x7a, 0xa6, 0xc0,
  0x73, 0x40, 0x46, 0x3f, 0xf4, 0xbb, 0x62, 0x3f, 0xb2, 0xf6, 0xc6, 0xc0,
  0xf5, 0x66, 0x9e, 0x3e, 0x1f, 0x5c, 0xf1, 0x3d, 0x9f, 0x1d, 0xb0, 0x3f,
  0xb5, 0xf1, 0x90, 0x3e, 0xb1, 0x6a, 0x41, 0x3f, 0x9d, 0x01, 0x98, 0x3e,
  0x94, 0x5a, 0x44, 0xbf, 0xeb, 0xf2, 0x48, 0xbf, 0xd2, 0x86, 0xa7, 0xbf,
  0xae, 0x76, 0xf3, 0x3f, 0x97, 0x43, 0x05, 0x3f, 0xde, 0x4d, 0xf5, 0x3f,
  0x45, 0x7a, 0xc7, 0xbd, 0xb6, 0x00, 0x09, 0x3e, 0x23, 0x13, 0xab, 0x3f,
  0x40, 0x1f, 0xfa, 0xbd, 0x34, 0xa3, 0x43, 0xc0, 0x4c, 0xc5, 0x85, 0xbd,
  0x01, 0xf9, 0xe9, 0xbf, 0xd4, 0xff, 0x6a, 0xbf, 0x90, 0xd1, 0xa5, 0xbe,
  0x4c, 0x89, 0x0e, 0x3c, 0xba, 0xfe, 0xe5, 0xbd, 0x94, 0x59, 0xbd, 0xbe,
  0xa2, 0xe5, 0x77, 0x3e, 0x85, 0x54, 0xa1, 0x3e, 0x73, 0x84, 0x95, 0xbe,
  0xc5, 0x40, 0x43, 0xbc, 0x95, 0xe2, 0xa0, 0x3d, 0x45, 0xbe, 0xc2, 0xbd,
  0x16, 0x17, 0x49, 0x39, 0x6a, 0x3a, 0xd3, 0xbd, 0xa1, 0x99, 0xb6, 0xbe,
  0x74, 0xa5, 0x94, 0xbe, 0x4f, 0x41, 0xa4, 0xbd, 0xf6, 0x7e, 0x70, 0xbe,
  0xb5, 0xc1, 0xa1, 0xbe, 0x01, 0xf8, 0xf6, 0xbd, 0xb1, 0x5a, 0x8f, 0x3e,
  0x60, 0x72, 0xa7, 0x3e, 0xbf, 0x58, 0xe7, 0xbd, 0xde, 0xd2, 0xd7, 0x3f,
  0x5d, 0x4c, 0x1e, 0xc0, 0xbc, 0x9e, 0x85, 0x3d, 0x44, 0xfc, 0x06, 0x3f,
  0x8a, 0x29, 0x24, 0xbe, 0x8d, 0x5c, 0x50, 0x40, 0xdf, 0xd2, 0x93, 0x3f,
  0x5b, 0x76, 0x0a, 0x3f, 0x4f, 0x8a, 0x78, 0x3f, 0x8d, 0xc1, 0xab, 0xbe,
  0x01, 0xc2, 0x7e, 0xbe, 0x50, 0xdb, 0x98, 0xbe, 0x51, 0x30, 0x91, 0xbe,
  0x24, 0xf1, 0x31, 0x3d, 0x02, 0xb5, 0x04, 0x3e, 0x7f, 0x1d, 0xc2, 0xbe,
  0x0f, 0x1b, 0x88, 0x3e, 0xf7, 0x96, 0xe9, 0x3d, 0x3d, 0x5f, 0x62, 0xbe,
  0x2e, 0xf0, 0xce, 0xbe, 0x13, 0x2f, 0xa2, 0xbd, 0x50, 0x8f, 0x99, 0xbc,
  0xd2, 0x57, 0x76, 0xbe, 0x86, 0xa6, 0x18, 0xbe, 0x20, 0x79, 0x3c, 0xbe,
  0x0a, 0xed, 0x62, 0xbe, 0x14, 0xad, 0x57, 0x3e, 0x0a, 0x2e, 0x4e, 0x3e,
  0x4d, 0x45, 0x1d, 0xbe, 0xea, 0x3c, 0x2f, 0x3f, 0x04, 0x31, 0xff, 0x3f,
  0x20, 0xb7, 0x1c, 0xbe, 0x7a, 0xf2, 0x77, 0x3e, 0xf2, 0xc0, 0x8d, 0x3f,
  0x85, 0x66, 0x98, 0xbe, 0xe6, 0x56, 0x5a, 0xc0, 0x85, 0xb0, 0x98, 0x3b,
  0xc9, 0x2c, 0xb1, 0xbf, 0x15, 0x0a, 0x37, 0xc0, 0xa9, 0x9e, 0x9a, 0xbe,
  0x34, 0x01, 0xb3, 0xbe, 0xe6, 0x56, 0x4f, 0x3e, 0xd0, 0xe7, 0xef, 0x3c,
  0x10, 0x43, 0xb2, 0xbc, 0x58, 0xe7, 0x1b, 0xbd, 0x29, 0x79, 0x83, 0x3e,
  0xbf, 0xa2, 0x0a, 0xbe, 0x73, 0xfa, 0xb4, 0x3e, 0x69, 0x7c, 0x50, 0xbe,
  0x98, 0x8b, 0x93, 0xbe, 0xdb, 0x70, 0x67, 0x3e, 0x20, 0x5b, 0x67, 0xbe,
  0x8a, 0xc7, 0x6f, 0x3e, 0xad, 0xbd, 0x39, 0xbe, 0x80, 0xa6, 0x13, 0xbe,
  0x82, 0x26, 0xf1, 0x3d, 0xf5, 0x04, 0x9b, 0x3c, 0x17, 0x3b, 0xa8, 0xbc,
  0xbd, 0x00, 0x4e, 0x3e, 0x0e, 0x2c, 0x85, 0xbe, 0x06, 0xe6, 0x99, 0xbe,
  0x72, 0x20, 0xac, 0xbe, 0xd5, 0x0e, 0x84, 0x3e, 0xdb, 0xc9, 0x9e, 0x3e,
  0xe9, 0xa4, 0x82, 0x3e, 0x88, 0xba, 0xa2, 0x3d, 0x4c, 0x99, 0xa1, 0xbd,
  0xe0, 0x2f, 0xa4, 0xbd, 0xa9, 0x1a, 0x4b, 0xbe, 0xee, 0xe5, 0xeb, 0x3d,
  0x27, 0x5f, 0x79, 0xbe, 0x48, 0x32, 0xaa, 0xbe, 0xed, 0xb6, 0x6e, 0xbe,
  0x27, 0x97, 0xed, 0x3d, 0xee, 0xbe, 0x40, 0xbe, 0xa6, 0x7e, 0xaa, 0xbd,
  0xd0, 0x2c, 0x51, 0xbe, 0xdf, 0x97, 0x00, 0xbd, 0x1f, 0x6d, 0x2c, 0x3d,
  0x2a, 0x3d, 0xf5, 0x3d, 0x8f, 0xc3, 0x3f, 0x40, 0x32, 0x64, 0x5e, 0xbf,
  0x78, 0x63, 0xbe, 0x3d, 0xee, 0x31, 0x0c, 0x40, 0x10, 0x74, 0xa7, 0x3d,
  0x9d, 0xf3, 0xdd, 0xbf, 0x62, 0x0d, 0x07, 0xbe, 0xa3, 0xe7, 0xf5, 0xbf,
  0xc1, 0x9b, 0x07, 0x3f, 0xb8, 0x63, 0x81, 0xbe, 0xac, 0x33, 0x88, 0xbe,
  0xcb, 0xde, 0x0e, 0xbe, 0x98, 0xac, 0x4e, 0x3d, 0xf1, 0xee, 0xbd, 0x3e,
  0xb6, 0x62, 0x03, 0x3e, 0x1e, 0xbf, 0x03, 0x3e, 0xe2, 0xf1, 0xbe, 0xbe,
  0x83, 0xc3, 0xc0, 0xbe, 0x68, 0x72, 0x6d, 0xbd, 0x8c, 0x2b, 0x1d, 0x3f,
  0xd3, 0x4e, 0x1b, 0x3f, 0x91, 0x54, 0x69, 0x3f, 0x5f, 0xc3, 0xbc, 0x3e,
  0x57, 0xd8, 0x92, 0x3e, 0xd0, 0xd9, 0x4a, 0xbe, 0x67, 0x0e, 0x9d, 0xc0,
  0x05, 0x63, 0x8b, 0xbd, 0x35, 0xbf, 0x5d, 0xbf, 0x30, 0xc5, 0x9e, 0xc0,
  0xed, 0x2c, 0x03, 0xbf, 0xc3, 0xbb, 0xda, 0x3f, 0x2e, 0x0f, 0x2b, 0xc0,
  0x7e, 0x41, 0x3c, 0x3e, 0x54, 0xda, 0x00, 0x3f, 0x60, 0xcf, 0x04, 0x3c,
  0x37, 0x2a, 0x4b, 0x40, 0xda, 0x06, 0x7a, 0x3f, 0x33, 0x5a, 0x9c, 0x3e,
  0xcb, 0xe2, 0x08, 0xbf, 0x59, 0x43, 0xf7, 0x3e, 0x63, 0xf4, 0x0a, 0x3e,
  0xb5, 0x57, 0x38, 0x3f, 0x1e, 0xee, 0xb7, 0xbe, 0xb7, 0x19, 0xd7, 0xbe,
  0xfd, 0x3e, 0xa3, 0x3e, 0x55, 0x6e, 0x01, 0xbf, 0xd0, 0x40, 0x4e, 0xbe,
  0xf8, 0xba, 0x57, 0xbe, 0xf4, 0xe4, 0x74, 0xbd, 0x82, 0x72, 0x14, 0xbe,
  0xa3, 0xa7, 0xb7, 0xbe, 0x60, 0x30, 0x08, 0xbd, 0xe7, 0x11, 0xbd, 0x3e,
  0x4c, 0x93, 0xd9, 0xbd, 0x38, 0xfc, 0x7c, 0xbd, 0x5c, 0xbf, 0xc2, 0x3d,
  0x62, 0xf9, 0xa9, 0xbe, 0x54, 0x56, 0x56, 0xbe, 0x90, 0x01, 0xc0, 0x3d,
  0xc2, 0xc9, 0xb3, 0x3d, 0xa9, 0xd9, 0xc0, 0x3c, 0x61, 0xb4, 0xad, 0x3d,
  0x4b, 0x52, 0x69, 0xbe, 0xc6, 0xcd, 0xb9, 0xbe, 0xf8, 0xfe, 0x57, 0x3d,
  0xd4, 0xa1, 0x86, 0x3d, 0x9b, 0x42, 0x2f, 0xbe, 0x3e, 0x63, 0x6d, 0xbe,
  0x75, 0x4c, 0xc4, 0xbe, 0x16, 0x82, 0x8b, 0xbd, 0xe6, 0x4a, 0x2a, 0x3f,
  0x13, 0x33, 0x05, 0xc0, 0x60, 0xcd, 0x68, 0x3c, 0xa2, 0xba, 0x93, 0xbd,
  0x4b, 0xdf, 0x51, 0xbe, 0x90, 0x5a, 0x36, 0x40, 0xe2, 0x0c, 0x9a, 0x3f,
  0xb7, 0x7a, 0x83, 0x3f, 0xc3, 0x6c, 0x28, 0xc0, 0xfc, 0xb2, 0xb6, 0x3e,
  0xc7, 0x7d, 0xaf, 0xbf, 0xf8, 0x39, 0x3e, 0x40, 0x2d, 0x04, 0x9b, 0x3e,
  0x96, 0x49, 0xdb, 0xbe, 0xac, 0x1c, 0xb1, 0x3d, 0x4a, 0xae, 0xe8, 0xbf,
  0x71, 0xf2, 0x42, 0xbf, 0xfb, 0xbb, 0x87, 0xbf, 0x45, 0x3c, 0xb9, 0x3f,
  0x31, 0xe1, 0x98, 0xbe, 0x72, 0x72, 0x45, 0x3f, 0x38, 0x81, 0xc7, 0xbf,
  0xc4, 0xdc, 0xa7, 0xbd, 0xfe, 0x35, 0x85, 0xbe, 0xe0, 0x6e, 0x69, 0xbe,
  0x4b, 0x9d, 0x16, 0x40, 0xf5, 0xa2, 0xa3, 0x3f, 0x2d, 0x6e, 0xd6, 0x3f,
  0x00, 0x92, 0x12, 0xc0, 0xbd, 0xd8, 0x4f, 0x3f, 0x36, 0x15, 0xa9, 0xbf,
  0x9b, 0x69, 0xe8, 0x3f, 0x7d, 0x57, 0x45, 0xbe, 0x8e, 0x81, 0x08, 0xbf,
  0x88, 0x60, 0xaa, 0x3d, 0x56, 0x00, 0xb1, 0xc0, 0xd1, 0x17, 0x73, 0x3e,
  0xf0, 0x26, 0xa9, 0x3f, 0xf0, 0xcd, 0xaa, 0xc0, 0x49, 0x93, 0x4d, 0x3f,
  0x06, 0x8f, 0x90, 0x3e, 0x00, 0x97, 0xf6, 0x3f, 0x3a, 0x36, 0x34, 0xbe,
  0x11, 0xaa, 0xfc, 0x3e, 0x6f, 0x86, 0xa5, 0x3e, 0xa5, 0x2f, 0x8d, 0xbf,
  0x6b, 0x7a, 0x4b, 0xbf, 0x0c, 0xaa, 0xc1, 0xbf, 0xee, 0x68, 0xcb, 0x3f,
  0x96, 0xfc, 0xff, 0xff, 0x04, 0x00, 0x00, 0x00, 0x90, 0x01, 0x00, 0x00,
  0xab, 0x9a, 0x06, 0x3f, 0xab, 0x10, 0x21, 0x3f, 0x72, 0xff, 0xeb, 0xbe,
  0x13, 0xe3, 0xb2, 0xbe, 0x0a, 0xef, 0x2e, 0x3f, 0x5b, 0xc8, 0xf1, 0x3d,
  0x46, 0xba, 0xd6, 0x3f, 0x68, 0x5b, 0xa4, 0x3f, 0xbd, 0x39, 0x0e, 0x3f,
  0xe5, 0x91, 0xc4, 0x3e, 0x49, 0xdc, 0x92, 0xbf, 0x9f, 0x73, 0xd6, 0xbf,
  0x94, 0xfe, 0x07, 0xbf, 0xf8, 0x71, 0xb3, 0xbe, 0xe5, 0x83, 0x4b, 0x40,
  0xb3, 0xb2, 0x3b, 0x40, 0x17, 0xf9, 0xc0, 0x3e, 0x5d, 0x46, 0xe6, 0x3e,
  0x6d, 0x92, 0x15, 0x3e, 0xba, 0xfd, 0x29, 0xbf, 0x6c, 0x08, 0xa5, 0xbd,
  0x20, 0xe3, 0x16, 0x3e, 0x93, 0xef, 0xa5, 0xbf, 0x69, 0xa2, 0x32, 0xbf,
  0x99, 0x3b, 0x93, 0xbf, 0x46, 0x74, 0x81, 0xbf, 0xfe, 0xc3, 0xa3, 0x3f,
  0x33, 0xa2, 0xb9, 0x3f, 0x2e, 0xc5, 0x8a, 0x3f, 0x92, 0xc0, 0x65, 0x3f,
  0x9e, 0xec, 0x49, 0xbe, 0xc6, 0xda, 0x5b, 0xbe, 0xa2, 0xf0, 0x03, 0x3f,
  0x8a, 0xb0, 0xdc, 0xbe, 0x39, 0xfa, 0xa8, 0xbe, 0x05, 0x53, 0xf9, 0xbe,
  0x90, 0x9f, 0x8a, 0xbd, 0x60, 0x0a, 0xd6, 0xbd, 0x7c, 0x21, 0xa9, 0xbe,
  0x6e, 0xcf, 0x58, 0xbe, 0xd5, 0x93, 0x64, 0xbf, 0x76, 0xd7, 0x3a, 0xbf,
  0xdc, 0x17, 0x6a, 0xbf, 0xf2, 0x24, 0x92, 0xbf, 0x4e, 0x08, 0x05, 0x40,
  0x0e, 0xa1, 0x22, 0x40, 0x52, 0x64, 0x09, 0x3e, 0xe8, 0xc4, 0x91, 0x3f,
  0xd7, 0x36, 0x8e, 0xbf, 0xc0, 0xa2, 0xbb, 0xbe, 0x70, 0x9f, 0x7e, 0x3e,
  0x70, 0x88, 0x15, 0xbd, 0xd2, 0x1d, 0xe4, 0xbe, 0x2e, 0xf8, 0xca, 0xbe,
  0x1c, 0x2c, 0x00, 0x3f, 0x96, 0x22, 0x76, 0xbe, 0xb4, 0x8c, 0x00, 0xbf,
  0x14, 0xa8, 0x5f, 0xbe, 0x6e, 0xec, 0xf1, 0xbe, 0x92, 0x5e, 0x19, 0xbe,
  0xc3, 0x3d, 0x57, 0xbf, 0x13, 0xc7, 0xf8, 0xbf, 0xbc, 0xac, 0x63, 0x3e,
  0x82, 0x3f, 0x44, 0x3f, 0x9b, 0x13, 0x83, 0x3f, 0xa4, 0x08, 0xe0, 0x3f,
  0x75, 0xaf, 0xf8, 0xbe, 0x4d, 0x99, 0xf0, 0xbe, 0xd7, 0xdb, 0x4d, 0xbf,
  0x34, 0x1a, 0x30, 0xbf, 0x01, 0xfd, 0x1b, 0x3f, 0xfc, 0x30, 0xa1, 0x3f,
  0xb4, 0x09, 0x24, 0x40, 0xda, 0xd4, 0x11, 0x40, 0xe7, 0x38, 0xc8, 0x3f,
  0xb3, 0xc6, 0xd3, 0x3f, 0xba, 0xef, 0x96, 0xbf, 0xbb, 0xe1, 0x9d, 0xbf,
  0x7e, 0xaf, 0x73, 0xbf, 0x74, 0xc1, 0x85, 0xbe, 0x62, 0x2e, 0x0b, 0x3f,
  0xf6, 0xd5, 0xbb, 0x3e, 0x85, 0x81, 0xbf, 0x3f, 0xbe, 0xe0, 0xcf, 0x3f,
  0xf7, 0x7d, 0x5d, 0xbe, 0xa3, 0x06, 0xb3, 0xbe, 0xcb, 0x07, 0x50, 0xbf,
  0x6e, 0xc8, 0xc5, 0xbe, 0xbf, 0x73, 0x05, 0xbf, 0xfa, 0x3e, 0x06, 0xbf,
  0x0f, 0x7a, 0xd7, 0xbf, 0xa3, 0x57, 0x89, 0xbf, 0x18, 0x45, 0xba, 0x3d,
  0x44, 0x80, 0x73, 0x3d, 0x52, 0xff, 0xc3, 0x3f, 0x56, 0x14, 0x77, 0x3f,
  0xae, 0x16, 0x6b, 0xbf, 0x73, 0xde, 0xc6, 0xbe, 0x34, 0xe1, 0xd2, 0xbe,
  0xc0, 0x5f, 0x8a, 0xbf, 0x32, 0xfe, 0xff, 0xff, 0x04, 0x00, 0x00, 0x00,
  0x28, 0x00, 0x00, 0x00, 0x76, 0x32, 0x07, 0xbc, 0x09, 0x2b, 0x8f, 0x3b,
  0x3f, 0xb6, 0xd9, 0x3c, 0x00, 0x00, 0x00, 0x00, 0xab, 0xf3, 0x55, 0x3d,
  0x00, 0x00, 0x00, 0x00, 0xd3, 0xa2, 0xc8, 0x3c, 0x21, 0xc9, 0xb1, 0x3d,
  0x37, 0xdc, 0x19, 0x3c, 0x01, 0xb3, 0x54, 0x3d, 0x66, 0xfe, 0xff, 0xff,
  0x04, 0x00, 0x00, 0x00, 0x80, 0x00, 0x00, 0x00, 0xce, 0x29, 0x04, 0x3c,
  0x44, 0xbd, 0xe1, 0xbc, 0x00, 0x00, 0x00, 0x00, 0x09, 0x15, 0x56, 0x3c,
  0x00, 0x00, 0x00, 0x00, 0xf0, 0xa8, 0x0d, 0x3e, 0x00, 0x00, 0x00, 0x00,
  0xbf, 0x54, 0xda, 0xbd, 0xf3, 0xf2, 0x1e, 0x3e, 0x27, 0x8b, 0x01, 0xbd,
  0xbe, 0x7b, 0xfc, 0xbc, 0xd5, 0x72, 0xe2, 0xbb, 0xaf, 0xc0, 0xe2, 0xbd,
  0x45, 0x01, 0x4c, 0xbd, 0xfa, 0xa8, 0x24, 0xbd, 0x7f, 0x4b, 0x5e, 0xbd,
  0x00, 0x00, 0x00, 0x00, 0xd0, 0x40, 0x45, 0xbc, 0x00, 0x00, 0x00, 0x00,
  0x3d, 0x23, 0x65, 0xb9, 0x80, 0x6d, 0xc3, 0xbc, 0x00, 0x00, 0x00, 0x00,
  0x6f, 0x93, 0xaf, 0x38, 0xce, 0x34, 0xe8, 0xbd, 0x01, 0x55, 0x92, 0xbb,
  0x00, 0x00, 0x00, 0x00, 0x76, 0x9e, 0xcc, 0xbc, 0xd5, 0x1a, 0xa9, 0x3b,
  0x15, 0xc2, 0x14, 0x3e, 0x76, 0xfa, 0x89, 0x3d, 0x1d, 0x8f, 0x54, 0x3e,
  0x54, 0xfe, 0x16, 0x3d, 0xf2, 0xfe, 0xff, 0xff, 0x04, 0x00, 0x00, 0x00,
  0x40, 0x00, 0x00, 0x00, 0x71, 0x67, 0x0a, 0xbd, 0x90, 0x79, 0x1e, 0xbd,
  0x97, 0x6c, 0x9c, 0xbd, 0x9f, 0xb0, 0x1a, 0xbe, 0x42, 0x8d, 0x12, 0xbd,
  0x27, 0xec, 0x15, 0xbf, 0xeb, 0x2b, 0x4b, 0xbf, 0x00, 0x00, 0x00, 0x00,
  0xbb, 0x3d, 0x7f, 0x3e, 0x5a, 0x93, 0xcf, 0x3e, 0x8e, 0xf3, 0x2e, 0x3f,
  0x91, 0x20, 0x03, 0x3f, 0x00, 0x00, 0x00, 0x00, 0x2b, 0x68, 0x11, 0xbe,
  0xee, 0x3f, 0x85, 0xbd, 0x9f, 0x3c, 0x25, 0x3f, 0x3e, 0xff, 0xff, 0xff,
  0x04, 0x00, 0x00, 0x00, 0x1c, 0x00, 0x00, 0x00, 0x69, 0x7a, 0xa3, 0x3d,
  0x5f, 0x10, 0xa5, 0xbf, 0xfc, 0xdb, 0xeb, 0xbe, 0x8c, 0x75, 0x04, 0x3f,
  0xe7, 0x81, 0xea, 0xbe, 0xd9, 0x1f, 0x2e, 0x3e, 0x1f, 0x65, 0x0a, 0x40,
  0xa4, 0xf8, 0xff, 0xff, 0xa8, 0xf8, 0xff, 0xff, 0x0f, 0x00, 0x00, 0x00,
  0x4d, 0x4c, 0x49, 0x52, 0x20, 0x43, 0x6f, 0x6e, 0x76, 0x65, 0x72, 0x74,
  0x65, 0x64, 0x2e, 0x00, 0x01, 0x00, 0x00, 0x00, 0x14, 0x00, 0x00, 0x00,
  0x00, 0x00, 0x0e, 0x00, 0x18, 0x00, 0x14, 0x00, 0x10, 0x00, 0x0c, 0x00,
  0x08, 0x00, 0x04, 0x00, 0x0e, 0x00, 0x00, 0x00, 0x14, 0x00, 0x00, 0x00,
  0x1c, 0x00, 0x00, 0x00, 0x5c, 0x01, 0x00, 0x00, 0x60, 0x01, 0x00, 0x00,
  0x64, 0x01, 0x00, 0x00, 0x04, 0x00, 0x00, 0x00, 0x6d, 0x61, 0x69, 0x6e,
  0x00, 0x00, 0x00, 0x00, 0x05, 0x00, 0x00, 0x00, 0x04, 0x01, 0x00, 0x00,
  0xbc, 0x00, 0x00, 0x00, 0x84, 0x00, 0x00, 0x00, 0x50, 0x00, 0x00, 0x00,
  0x14, 0x00, 0x00, 0x00, 0x00, 0x00, 0x0e, 0x00, 0x1a, 0x00, 0x14, 0x00,
  0x10, 0x00, 0x0c, 0x00, 0x0b, 0x00, 0x04, 0x00, 0x0e, 0x00, 0x00, 0x00,
  0x1c, 0x00, 0x00, 0x00, 0x00, 0x00, 0x00, 0x09, 0x1c, 0x00, 0x00, 0x00,
  0x20, 0x00, 0x00, 0x00, 0x01, 0x00, 0x00, 0x00, 0x00, 0x00, 0x06, 0x00,
  0x08, 0x00, 0x04, 0x00, 0x06, 0x00, 0x00, 0x00, 0x00, 0x00, 0x80, 0x3f,
  0x01, 0x00, 0x00, 0x00, 0x0d, 0x00, 0x00, 0x00, 0x01, 0x00, 0x00, 0x00,
  0x0c, 0x00, 0x00, 0x00, 0x66, 0xff, 0xff, 0xff, 0x10, 0x00, 0x00, 0x00,
  0x00, 0x00, 0x00, 0x08, 0x0c, 0x00, 0x00, 0x00, 0x10, 0x00, 0x00, 0x00,
  0x70, 0xf9, 0xff, 0xff, 0x01, 0x00, 0x00, 0x00, 0x0c, 0x00, 0x00, 0x00,
  0x03, 0x00, 0x00, 0x00, 0x0b, 0x00, 0x00, 0x00, 0x08, 0x00, 0x00, 0x00,
  0x01, 0x00, 0x00, 0x00, 0x96, 0xff, 0xff, 0xff, 0x10, 0x00, 0x00, 0x00,
  0x00, 0x00, 0x00, 0x08, 0x10, 0x00, 0x00, 0x00, 0x14, 0x00, 0x00, 0x00,
  0x86, 0xff, 0xff, 0xff, 0x00, 0x00, 0x00, 0x01, 0x01, 0x00, 0x00, 0x00,
  0x0b, 0x00, 0x00, 0x00, 0x03, 0x00, 0x00, 0x00, 0x0a, 0x00, 0x00, 0x00,
  0x07, 0x00, 0x00, 0x00, 0x02, 0x00, 0x00, 0x00, 0xca, 0xff, 0xff, 0xff,
  0x10, 0x00, 0x00, 0x00, 0x00, 0x00, 0x00, 0x08, 0x10, 0x00, 0x00, 0x00,
  0x14, 0x00, 0x00, 0x00, 0xba, 0xff, 0xff, 0xff, 0x00, 0x00, 0x00, 0x01,
  0x01, 0x00, 0x00, 0x00, 0x0a, 0x00, 0x00, 0x00, 0x03, 0x00, 0x00, 0x00,
  0x09, 0x00, 0x00, 0x00, 0x06, 0x00, 0x00, 0x00, 0x03, 0x00, 0x00, 0x00,
  0x00, 0x00, 0x0e, 0x00, 0x16, 0x00, 0x00, 0x00, 0x10, 0x00, 0x0c, 0x00,
  0x0b, 0x00, 0x04, 0x00, 0x0e, 0x00, 0x00, 0x00, 0x18, 0x00, 0x00, 0x00,
  0x00, 0x00, 0x00, 0x08, 0x18, 0x00, 0x00, 0x00, 0x1c, 0x00, 0x00, 0x00,
  0x00, 0x00, 0x06, 0x00, 0x08, 0x00, 0x07, 0x00, 0x06, 0x00, 0x00, 0x00,
  0x00, 0x00, 0x00, 0x01, 0x01, 0x00, 0x00, 0x00, 0x09, 0x00, 0x00, 0x00,
  0x03, 0x00, 0x00, 0x00, 0x00, 0x00, 0x00, 0x00, 0x05, 0x00, 0x00, 0x00,
  0x04, 0x00, 0x00, 0x00, 0x01, 0x00, 0x00, 0x00, 0x0d, 0x00, 0x00, 0x00,
  0x01, 0x00, 0x00, 0x00, 0x00, 0x00, 0x00, 0x00, 0x0e, 0x00, 0x00, 0x00,
  0x84, 0x05, 0x00, 0x00, 0x10, 0x05, 0x00, 0x00, 0x9c, 0x04, 0x00, 0x00,
  0x40, 0x04, 0x00, 0x00, 0xe4, 0x03, 0x00, 0x00, 0x94, 0x03, 0x00, 0x00,
  0x44, 0x03, 0x00, 0x00, 0xf4, 0x02, 0x00, 0x00, 0xa4, 0x02, 0x00, 0x00,
  0x0c, 0x02, 0x00, 0x00, 0x74, 0x01, 0x00, 0x00, 0xdc, 0x00, 0x00, 0x00,
  0x60, 0x00, 0x00, 0x00, 0x04, 0x00, 0x00, 0x00, 0xca, 0xfa, 0xff, 0xff,
  0x00, 0x00, 0x00, 0x01, 0x14, 0x00, 0x00, 0x00, 0x1c, 0x00, 0x00, 0x00,
  0x1c, 0x00, 0x00, 0x00, 0x0e, 0x00, 0x00, 0x00, 0x34, 0x00, 0x00, 0x00,
  0x02, 0x00, 0x00, 0x00, 0xff, 0xff, 0xff, 0xff, 0x07, 0x00, 0x00, 0x00,
  0xb4, 0xfa, 0xff, 0xff, 0x19, 0x00, 0x00, 0x00, 0x53, 0x74, 0x61, 0x74,
  0x65, 0x66, 0x75, 0x6c, 0x50, 0x61, 0x72, 0x74, 0x69, 0x74, 0x69, 0x6f,
  0x6e, 0x65, 0x64, 0x43, 0x61, 0x6c, 0x6c, 0x3a, 0x30, 0x00, 0x00, 0x00,
  0x02, 0x00, 0x00, 0x00, 0x01, 0x00, 0x00, 0x00, 0x07, 0x00, 0x00, 0x00,
  0x22, 0xfb, 0xff, 0xff, 0x00, 0x00, 0x00, 0x01, 0x14, 0x00, 0x00, 0x00,
  0x1c, 0x00, 0x00, 0x00, 0x1c, 0x00, 0x00, 0x00, 0x0d, 0x00, 0x00, 0x00,
  0x54, 0x00, 0x00, 0x00, 0x02, 0x00, 0x00, 0x00, 0xff, 0xff, 0xff, 0xff,
  0x07, 0x00, 0x00, 0x00, 0x0c, 0xfb, 0xff, 0xff, 0x3a, 0x00, 0x00, 0x00,
  0x73, 0x65, 0x71, 0x75, 0x65, 0x6e, 0x74, 0x69, 0x61, 0x6c, 0x5f, 0x33,
  0x2f, 0x64, 0x65, 0x6e, 0x73, 0x65, 0x5f, 0x31, 0x35, 0x2f, 0x4d, 0x61,
  0x74, 0x4d, 0x75, 0x6c, 0x3b, 0x73, 0x65, 0x71, 0x75, 0x65, 0x6e, 0x74,
  0x69, 0x61, 0x6c, 0x5f, 0x33, 0x2f, 0x64, 0x65, 0x6e, 0x73, 0x65, 0x5f,
  0x31, 0x35, 0x2f, 0x42, 0x69, 0x61, 0x73, 0x41, 0x64, 0x64, 0x00, 0x00,
  0x02, 0x00, 0x00, 0x00, 0x01, 0x00, 0x00, 0x00, 0x07, 0x00, 0x00, 0x00,
  0x9a, 0xfb, 0xff, 0xff, 0x00, 0x00, 0x00, 0x01, 0x14, 0x00, 0x00, 0x00,
  0x1c, 0x00, 0x00, 0x00, 0x1c, 0x00, 0x00, 0x00, 0x0c, 0x00, 0x00, 0x00,
  0x70, 0x00, 0x00, 0x00, 0x02, 0x00, 0x00, 0x00, 0xff, 0xff, 0xff, 0xff,
  0x10, 0x00, 0x00, 0x00, 0x84, 0xfb, 0xff, 0xff, 0x55, 0x00, 0x00, 0x00,
  0x73, 0x65, 0x71, 0x75, 0x65, 0x6e, 0x74, 0x69, 0x61, 0x6c, 0x5f, 0x33,
  0x2f, 0x64, 0x65, 0x6e, 0x73, 0x65, 0x5f, 0x31, 0x34, 0x2f, 0x4d, 0x61,
  0x74, 0x4d, 0x75, 0x6c, 0x3b, 0x73, 0x65, 0x71, 0x75, 0x65, 0x6e, 0x74,
  0x69, 0x61, 0x6c, 0x5f, 0x33, 0x2f, 0x64, 0x65, 0x6e, 0x73, 0x65, 0x5f,
  0x31, 0x34, 0x2f, 0x52, 0x65, 0x6c, 0x75, 0x3b, 0x73, 0x65, 0x71, 0x75,
  0x65, 0x6e, 0x74, 0x69, 0x61, 0x6c, 0x5f, 0x33, 0x2f, 0x64, 0x65, 0x6e,
  0x73, 0x65, 0x5f, 0x31, 0x34, 0x2f, 0x42, 0x69, 0x61, 0x73, 0x41, 0x64,
  0x64, 0x00, 0x00, 0x00, 0x02, 0x00, 0x00, 0x00, 0x01, 0x00, 0x00, 0x00,
  0x10, 0x00, 0x00, 0x00, 0x2e, 0xfc, 0xff, 0xff, 0x00, 0x00, 0x00, 0x01,
  0x14, 0x00, 0x00, 0x00, 0x1c, 0x00, 0x00, 0x00, 0x1c, 0x00, 0x00, 0x00,
  0x0b, 0x00, 0x00, 0x00, 0x70, 0x00, 0x00, 0x00, 0x02, 0x00, 0x00, 0x00,
  0xff, 0xff, 0xff, 0xff, 0x20, 0x00, 0x00, 0x00, 0x18, 0xfc, 0xff, 0xff,
  0x55, 0x00, 0x00, 0x00, 0x73, 0x65, 0x71, 0x75, 0x65, 0x6e, 0x74, 0x69,
  0x61, 0x6c, 0x5f, 0x33, 0x2f, 0x64, 0x65, 0x6e, 0x73, 0x65, 0x5f, 0x31,
  0x33, 0x2f, 0x4d, 0x61, 0x74, 0x4d, 0x75, 0x6c, 0x3b, 0x73, 0x65, 0x71,
  0x75, 0x65, 0x6e, 0x74, 0x69, 0x61, 0x6c, 0x5f, 0x33, 0x2f, 0x64, 0x65,
  0x6e, 0x73, 0x65, 0x5f, 0x31, 0x33, 0x2f, 0x52, 0x65, 0x6c, 0x75, 0x3b,
  0x73, 0x65, 0x71, 0x75, 0x65, 0x6e, 0x74, 0x69, 0x61, 0x6c, 0x5f, 0x33,
  0x2f, 0x64, 0x65, 0x6e, 0x73, 0x65, 0x5f, 0x31, 0x33, 0x2f, 0x42, 0x69,
  0x61, 0x73, 0x41, 0x64, 0x64, 0x00, 0x00, 0x00, 0x02, 0x00, 0x00, 0x00,
  0x01, 0x00, 0x00, 0x00, 0x20, 0x00, 0x00, 0x00, 0xc2, 0xfc, 0xff, 0xff,
  0x00, 0x00, 0x00, 0x01, 0x14, 0x00, 0x00, 0x00, 0x1c, 0x00, 0x00, 0x00,
  0x1c, 0x00, 0x00, 0x00, 0x0a, 0x00, 0x00, 0x00, 0x70, 0x00, 0x00, 0x00,
  0x02, 0x00, 0x00, 0x00, 0xff, 0xff, 0xff, 0xff, 0x0a, 0x00, 0x00, 0x00,
  0xac, 0xfc, 0xff, 0xff, 0x55, 0x00, 0x00, 0x00, 0x73, 0x65, 0x71, 0x75,
  0x65, 0x6e, 0x74, 0x69, 0x61, 0x6c, 0x5f, 0x33, 0x2f, 0x64, 0x65, 0x6e,
  0x73, 0x65, 0x5f, 0x31, 0x32, 0x2f, 0x4d, 0x61, 0x74, 0x4d, 0x75, 0x6c,
  0x3b, 0x73, 0x65, 0x71, 0x75, 0x65, 0x6e, 0x74, 0x69, 0x61, 0x6c, 0x5f,
  0x33, 0x2f, 0x64, 0x65, 0x6e, 0x73, 0x65, 0x5f, 0x31, 0x32, 0x2f, 0x52,
  0x65, 0x6c, 0x75, 0x3b, 0x73, 0x65, 0x71, 0x75, 0x65, 0x6e, 0x74, 0x69,
  0x61, 0x6c, 0x5f, 0x33, 0x2f, 0x64, 0x65, 0x6e, 0x73, 0x65, 0x5f, 0x31,
  0x32, 0x2f, 0x42, 0x69, 0x61, 0x73, 0x41, 0x64, 0x64, 0x00, 0x00, 0x00,
  0x02, 0x00, 0x00, 0x00, 0x01, 0x00, 0x00, 0x00, 0x0a, 0x00, 0x00, 0x00,
  0xc6, 0xfd, 0xff, 0xff, 0x00, 0x00, 0x00, 0x01, 0x10, 0x00, 0x00, 0x00,
  0x10, 0x00, 0x00, 0x00, 0x09, 0x00, 0x00, 0x00, 0x2c, 0x00, 0x00, 0x00,
  0x30, 0xfd, 0xff, 0xff, 0x1c, 0x00, 0x00, 0x00, 0x73, 0x65, 0x71, 0x75,
  0x65, 0x6e, 0x74, 0x69, 0x61, 0x6c, 0x5f, 0x33, 0x2f, 0x64, 0x65, 0x6e,
  0x73, 0x65, 0x5f, 0x31, 0x35, 0x2f, 0x4d, 0x61, 0x74, 0x4d, 0x75, 0x6c,
  0x00, 0x00, 0x00, 0x00, 0x02, 0x00, 0x00, 0x00, 0x07, 0x00, 0x00, 0x00,
  0x10, 0x00, 0x00, 0x00, 0x12, 0xfe, 0xff, 0xff, 0x00, 0x00, 0x00, 0x01,
  0x10, 0x00, 0x00, 0x00, 0x10, 0x00, 0x00, 0x00, 0x08, 0x00, 0x00, 0x00,
  0x2c, 0x00, 0x00, 0x00, 0x7c, 0xfd, 0xff, 0xff, 0x1c, 0x00, 0x00, 0x00,
  0x73, 0x65, 0x71, 0x75, 0x65, 0x6e, 0x74, 0x69, 0x61, 0x6c, 0x5f, 0x33,
  0x2f, 0x64, 0x65, 0x6e, 0x73, 0x65, 0x5f, 0x31, 0x34, 0x2f, 0x4d, 0x61,
  0x74, 0x4d, 0x75, 0x6c, 0x00, 0x00, 0x00, 0x00, 0x02, 0x00, 0x00, 0x00,
  0x10, 0x00, 0x00, 0x00, 0x20, 0x00, 0x00, 0x00, 0x5e, 0xfe, 0xff, 0xff,
  0x00, 0x00, 0x00, 0x01, 0x10, 0x00, 0x00, 0x00, 0x10, 0x00, 0x00, 0x00,
  0x07, 0x00, 0x00, 0x00, 0x2c, 0x00, 0x00, 0x00, 0xc8, 0xfd, 0xff, 0xff,
  0x1c, 0x00, 0x00, 0x00, 0x73, 0x65, 0x71, 0x75, 0x65, 0x6e, 0x74, 0x69,
  0x61, 0x6c, 0x5f, 0x33, 0x2f, 0x64, 0x65, 0x6e, 0x73, 0x65, 0x5f, 0x31,
  0x33, 0x2f, 0x4d, 0x61, 0x74, 0x4d, 0x75, 0x6c, 0x00, 0x00, 0x00, 0x00,
  0x02, 0x00, 0x00, 0x00, 0x20, 0x00, 0x00, 0x00, 0x0a, 0x00, 0x00, 0x00,
  0xaa, 0xfe, 0xff, 0xff, 0x00, 0x00, 0x00, 0x01, 0x10, 0x00, 0x00, 0x00,
  0x10, 0x00, 0x00, 0x00, 0x06, 0x00, 0x00, 0x00, 0x2c, 0x00, 0x00, 0x00,
  0x14, 0xfe, 0xff, 0xff, 0x1c, 0x00, 0x00, 0x00, 0x73, 0x65, 0x71, 0x75,
  0x65, 0x6e, 0x74, 0x69, 0x61, 0x6c, 0x5f, 0x33, 0x2f, 0x64, 0x65, 0x6e,
  0x73, 0x65, 0x5f, 0x31, 0x32, 0x2f, 0x4d, 0x61, 0x74, 0x4d, 0x75, 0x6c,
  0x00, 0x00, 0x00, 0x00, 0x02, 0x00, 0x00, 0x00, 0x0a, 0x00, 0x00, 0x00,
  0x0a, 0x00, 0x00, 0x00, 0xf6, 0xfe, 0xff, 0xff, 0x00, 0x00, 0x00, 0x01,
  0x10, 0x00, 0x00, 0x00, 0x10, 0x00, 0x00, 0x00, 0x05, 0x00, 0x00, 0x00,
  0x3c, 0x00, 0x00, 0x00, 0x60, 0xfe, 0xff, 0xff, 0x2c, 0x00, 0x00, 0x00,
  0x73, 0x65, 0x71, 0x75, 0x65, 0x6e, 0x74, 0x69, 0x61, 0x6c, 0x5f, 0x33,
  0x2f, 0x64, 0x65, 0x6e, 0x73, 0x65, 0x5f, 0x31, 0x32, 0x2f, 0x42, 0x69,
  0x61, 0x73, 0x41, 0x64, 0x64, 0x2f, 0x52, 0x65, 0x61, 0x64, 0x56, 0x61,
  0x72, 0x69, 0x61, 0x62, 0x6c, 0x65, 0x4f, 0x70, 0x00, 0x00, 0x00, 0x00,
  0x01, 0x00, 0x00, 0x00, 0x0a, 0x00, 0x00, 0x00, 0x4e, 0xff, 0xff, 0xff,
  0x00, 0x00, 0x00, 0x01, 0x10, 0x00, 0x00, 0x00, 0x10, 0x00, 0x00, 0x00,
  0x04, 0x00, 0x00, 0x00, 0x3c, 0x00, 0x00, 0x00, 0xb8, 0xfe, 0xff, 0xff,
  0x2c, 0x00, 0x00, 0x00, 0x73, 0x65, 0x71, 0x75, 0x65, 0x6e, 0x74, 0x69,
  0x61, 0x6c, 0x5f, 0x33, 0x2f, 0x64, 0x65, 0x6e, 0x73, 0x65, 0x5f, 0x31,
  0x33, 0x2f, 0x42, 0x69, 0x61, 0x73, 0x41, 0x64, 0x64, 0x2f, 0x52, 0x65,
  0x61, 0x64, 0x56, 0x61, 0x72, 0x69, 0x61, 0x62, 0x6c, 0x65, 0x4f, 0x70,
  0x00, 0x00, 0x00, 0x00, 0x01, 0x00, 0x00, 0x00, 0x20, 0x00, 0x00, 0x00,
  0xa6, 0xff, 0xff, 0xff, 0x00, 0x00, 0x00, 0x01, 0x10, 0x00, 0x00, 0x00,
  0x10, 0x00, 0x00, 0x00, 0x03, 0x00, 0x00, 0x00, 0x3c, 0x00, 0x00, 0x00,
  0x10, 0xff, 0xff, 0xff, 0x2c, 0x00, 0x00, 0x00, 0x73, 0x65, 0x71, 0x75,
  0x65, 0x6e, 0x74, 0x69, 0x61, 0x6c, 0x5f, 0x33, 0x2f, 0x64, 0x65, 0x6e,
  0x73, 0x65, 0x5f, 0x31, 0x34, 0x2f, 0x42, 0x69, 0x61, 0x73, 0x41, 0x64,
  0x64, 0x2f, 0x52, 0x65, 0x61, 0x64, 0x56, 0x61, 0x72, 0x69, 0x61, 0x62,
  0x6c, 0x65, 0x4f, 0x70, 0x00, 0x00, 0x00, 0x00, 0x01, 0x00, 0x00, 0x00,
  0x10, 0x00, 0x00, 0x00, 0x00, 0x00, 0x16, 0x00, 0x18, 0x00, 0x14, 0x00,
  0x00, 0x00, 0x10, 0x00, 0x0c, 0x00, 0x08, 0x00, 0x00, 0x00, 0x00, 0x00,
  0x00, 0x00, 0x07, 0x00, 0x16, 0x00, 0x00, 0x00, 0x00, 0x00, 0x00, 0x01,
  0x10, 0x00, 0x00, 0x00, 0x10, 0x00, 0x00, 0x00, 0x02, 0x00, 0x00, 0x00,
  0x3c, 0x00, 0x00, 0x00, 0x80, 0xff, 0xff, 0xff, 0x2c, 0x00, 0x00, 0x00,
  0x73, 0x65, 0x71, 0x75, 0x65, 0x6e, 0x74, 0x69, 0x61, 0x6c, 0x5f, 0x33,
  0x2f, 0x64, 0x65, 0x6e, 0x73, 0x65, 0x5f, 0x31, 0x35, 0x2f, 0x42, 0x69,
  0x61, 0x73, 0x41, 0x64, 0x64, 0x2f, 0x52, 0x65, 0x61, 0x64, 0x56, 0x61,
  0x72, 0x69, 0x61, 0x62, 0x6c, 0x65, 0x4f, 0x70, 0x00, 0x00, 0x00, 0x00,
  0x01, 0x00, 0x00, 0x00, 0x07, 0x00, 0x00, 0x00, 0x00, 0x00, 0x16, 0x00,
  0x1c, 0x00, 0x18, 0x00, 0x00, 0x00, 0x14, 0x00, 0x10, 0x00, 0x0c, 0x00,
  0x00, 0x00, 0x00, 0x00, 0x08, 0x00, 0x07, 0x00, 0x16, 0x00, 0x00, 0x00,
  0x00, 0x00, 0x00, 0x01, 0x14, 0x00, 0x00, 0x00, 0x20, 0x00, 0x00, 0x00,
  0x20, 0x00, 0x00, 0x00, 0x01, 0x00, 0x00, 0x00, 0x40, 0x00, 0x00, 0x00,
  0x02, 0x00, 0x00, 0x00, 0xff, 0xff, 0xff, 0xff, 0x0a, 0x00, 0x00, 0x00,
  0x04, 0x00, 0x04, 0x00, 0x04, 0x00, 0x00, 0x00, 0x20, 0x00, 0x00, 0x00,
  0x73, 0x65, 0x72, 0x76, 0x69, 0x6e, 0x67, 0x5f, 0x64, 0x65, 0x66, 0x61,
  0x75, 0x6c, 0x74, 0x5f, 0x64, 0x65, 0x6e, 0x73, 0x65, 0x5f, 0x31, 0x32,
  0x5f, 0x69, 0x6e, 0x70, 0x75, 0x74, 0x3a, 0x30, 0x00, 0x00, 0x00, 0x00,
  0x02, 0x00, 0x00, 0x00, 0x01, 0x00, 0x00, 0x00, 0x0a, 0x00, 0x00, 0x00,
  0x02, 0x00, 0x00, 0x00, 0x20, 0x00, 0x00, 0x00, 0x04, 0x00, 0x00, 0x00,
  0xf4, 0xff, 0xff, 0xff, 0x19, 0x00, 0x00, 0x00, 0x00, 0x00, 0x00, 0x19,
  0x0c, 0x00, 0x0c, 0x00, 0x0b, 0x00, 0x00, 0x00, 0x00, 0x00, 0x04, 0x00,
  0x0c, 0x00, 0x00, 0x00, 0x09, 0x00, 0x00, 0x00, 0x00, 0x00, 0x00, 0x09
};

